#ifndef UUID139677479668608
#define UUID139677479668608

#include <EloquentTinyML.h>
#include <eloquent_tinyml/tensorflow.h>

#ifdef __has_attribute
#define HAVE_ATTRIBUTE(x) __has_attribute(x)
#else
#define HAVE_ATTRIBUTE(x) 0
#endif
#if HAVE_ATTRIBUTE(aligned) || (defined(__GNUC__) && !defined(__clang__))
#define DATA_ALIGN_ATTRIBUTE __attribute__((aligned(4)))
#else
#define DATA_ALIGN_ATTRIBUTE
#endif

#ifndef ARENA_SIZE
#define ARENA_SIZE 4096
#endif

/** model size = 3560 bytes **/
const unsigned char modelData[] DATA_ALIGN_ATTRIBUTE = { 0x1c, 0x00, 0x00, 0x00, 0x54, 0x46, 0x4c, 0x33, 0x14, 0x00, 0x20, 0x00, 0x1c, 0x00, 0x18, 0x00, 0x14, 0x00, 0x10, 0x00, 0x0c, 0x00, 0x00, 0x00, 0x08, 0x00, 0x04, 0x00, 0x14, 0x00, 0x00, 0x00, 0x1c, 0x00, 0x00, 0x00, 0x90, 0x00, 0x00, 0x00, 0xe8, 0x00, 0x00, 0x00, 0x68, 0x07, 0x00, 0x00, 0x78, 0x07, 0x00, 0x00, 0x94, 0x0d, 0x00, 0x00, 0x03, 0x00, 0x00, 0x00, 0x01, 0x00, 0x00, 0x00, 0x10, 0x00, 0x00, 0x00, 0x00, 0x00, 0x0a, 0x00, 0x10, 0x00, 0x0c, 0x00, 0x08, 0x00, 0x04, 0x00, 0x0a, 0x00, 0x00, 0x00, 0x0c, 0x00, 0x00, 0x00, 0x1c, 0x00, 0x00, 0x00, 0x38, 0x00, 0x00, 0x00, 0x0f, 0x00, 0x00, 0x00, 0x73, 0x65, 0x72, 0x76, 0x69, 0x6e, 0x67, 0x5f, 0x64, 0x65, 0x66, 0x61, 0x75, 0x6c, 0x74, 0x00, 0x01, 0x00, 0x00, 0x00, 0x04, 0x00, 0x00, 0x00, 0x98, 0xff, 0xff, 0xff, 0x0b, 0x00, 0x00, 0x00, 0x04, 0x00, 0x00, 0x00, 0x07, 0x00, 0x00, 0x00, 0x64, 0x65, 0x6e, 0x73, 0x65, 0x5f, 0x33, 0x00, 0x01, 0x00, 0x00, 0x00, 0x04, 0x00, 0x00, 0x00, 0x62, 0xf9, 0xff, 0xff, 0x04, 0x00, 0x00, 0x00, 0x0b, 0x00, 0x00, 0x00, 0x64, 0x65, 0x6e, 0x73, 0x65, 0x5f, 0x69, 0x6e, 0x70, 0x75, 0x74, 0x00, 0x02, 0x00, 0x00, 0x00, 0x34, 0x00, 0x00, 0x00, 0x04, 0x00, 0x00, 0x00, 0xdc, 0xff, 0xff, 0xff, 0x0e, 0x00, 0x00, 0x00, 0x04, 0x00, 0x00, 0x00, 0x13, 0x00, 0x00, 0x00, 0x43, 0x4f, 0x4e, 0x56, 0x45, 0x52, 0x53, 0x49, 0x4f, 0x4e, 0x5f, 0x4d, 0x45, 0x54, 0x41, 0x44, 0x41, 0x54, 0x41, 0x00, 0x08, 0x00, 0x0c, 0x00, 0x08, 0x00, 0x04, 0x00, 0x08, 0x00, 0x00, 0x00, 0x0d, 0x00, 0x00, 0x00, 0x04, 0x00, 0x00, 0x00, 0x13, 0x00, 0x00, 0x00, 0x6d, 0x69, 0x6e, 0x5f, 0x72, 0x75, 0x6e, 0x74, 0x69, 0x6d, 0x65, 0x5f, 0x76, 0x65, 0x72, 0x73, 0x69, 0x6f, 0x6e, 0x00, 0x0f, 0x00, 0x00, 0x00, 0x7c, 0x06, 0x00, 0x00, 0x74, 0x06, 0x00, 0x00, 0x24, 0x06, 0x00, 0x00, 0xcc, 0x05, 0x00, 0x00, 0xb8, 0x05, 0x00, 0x00, 0x98, 0x05, 0x00, 0x00, 0x08, 0x05, 0x00, 0x00, 0xf8, 0x00, 0x00, 0x00, 0xa8, 0x00, 0x00, 0x00, 0xa0, 0x00, 0x00, 0x00, 0x98, 0x00, 0x00, 0x00, 0x90, 0x00, 0x00, 0x00, 0x88, 0x00, 0x00, 0x00, 0x68, 0x00, 0x00, 0x00, 0x04, 0x00, 0x00, 0x00, 0x16, 0xfa, 0xff, 0xff, 0x04, 0x00, 0x00, 0x00, 0x54, 0x00, 0x00, 0x00, 0x0c, 0x00, 0x00, 0x00, 0x08, 0x00, 0x0e, 0x00, 0x08, 0x00, 0x04, 0x00, 0x08, 0x00, 0x00, 0x00, 0x10, 0x00, 0x00, 0x00, 0x24, 0x00, 0x00, 0x00, 0x00, 0x00, 0x06, 0x00, 0x08, 0x00, 0x04, 0x00, 0x06, 0x00, 0x00, 0x00, 0x04, 0x00, 0x00, 0x00, 0x00, 0x00, 0x00, 0x00, 0x00, 0x00, 0x0a, 0x00, 0x10, 0x00, 0x0c, 0x00, 0x08, 0x00, 0x04, 0x00, 0x0a, 0x00, 0x00, 0x00, 0x02, 0x00, 0x00, 0x00, 0x02, 0x00, 0x00, 0x00, 0x04, 0x00, 0x00, 0x00, 0x06, 0x00, 0x00, 0x00, 0x32, 0x2e, 0x31, 0x31, 0x2e, 0x30, 0x00, 0x00, 0x76, 0xfa, 0xff, 0xff, 0x04, 0x00, 0x00, 0x00, 0x10, 0x00, 0x00, 0x00, 0x31, 0x2e, 0x35, 0x2e, 0x30, 0x00, 0x00, 0x00, 0x00, 0x00, 0x00, 0x00, 0x00, 0x00, 0x00, 0x00, 0x3c, 0xf4, 0xff, 0xff, 0x40, 0xf4, 0xff, 0xff, 0x44, 0xf4, 0xff, 0xff, 0x48, 0xf4, 0xff, 0xff, 0xa2, 0xfa, 0xff, 0xff, 0x04, 0x00, 0x00, 0x00, 0x40, 0x00, 0x00, 0x00, 0x46, 0x98, 0xa0, 0x3e, 0x73, 0x73, 0x8b, 0x3e, 0xf2, 0x1a, 0xe1, 0x3e, 0xd6, 0xbc, 0x12, 0x3f, 0x24, 0xa8, 0x15, 0x3f, 0x11, 0xe8, 0x05, 0xbe, 0x81, 0xce, 0x30, 0x3f, 0xd8, 0xcc, 0x39, 0xbe, 0x14, 0x70, 0x09, 0x3f, 0x0a, 0x4f, 0x6f, 0xbe, 0xee, 0xf7, 0x50, 0xbe, 0x23, 0x26, 0x48, 0x3e, 0x7e, 0xf0, 0x0e, 0xbf, 0x07, 0x14, 0x0a, 0xbf, 0xe7, 0xcd, 0xc7, 0xbe, 0x87, 0xa2, 0xb0, 0xbd, 0xee, 0xfa, 0xff, 0xff, 0x04, 0x00, 0x00, 0x00, 0x00, 0x04, 0x00, 0x00, 0xd1, 0x6f, 0x25, 0x3e, 0x6b, 0x47, 0xa7, 0x3d, 0x23, 0x96, 0x30, 0xbe, 0x04, 0xe6, 0xda, 0x3e, 0x80, 0xec, 0xb4, 0xbd, 0xf8, 0x55, 0x30, 0xbe, 0x58, 0x4d, 0x5c, 0xbd, 0x2b, 0xc7, 0x26, 0x3e, 0xed, 0x8d, 0x5d, 0x3e, 0x51, 0x5e, 0x25, 0x3c, 0xdc, 0x70, 0xca, 0x3a, 0x1c, 0x7a, 0x3d, 0x3e, 0x1e, 0x50, 0x31, 0xbd, 0xdf, 0xe6, 0xad, 0x3e, 0x9c, 0x85, 0x15, 0xbe, 0x20, 0x4d, 0x7c, 0x3e, 0x7c, 0xc0, 0x89, 0xbe, 0xb2, 0x7f, 0xbd, 0xbd, 0x87, 0x45, 0x35, 0x3d, 0x3b, 0x82, 0xa2, 0x3e, 0x78, 0xcf, 0x51, 0xbe, 0x8f, 0x4f, 0x52, 0x3e, 0x1c, 0xce, 0x0e, 0x3f, 0x5e, 0xf2, 0x5d, 0xbe, 0xfa, 0x0e, 0x67, 0x3e, 0x92, 0xaf, 0x04, 0x3f, 0xfd, 0xea, 0x49, 0x3d, 0x35, 0x8d, 0x15, 0x3f, 0xed, 0x27, 0x12, 0x3e, 0x4d, 0x05, 0xe7, 0xbd, 0x96, 0xcb, 0x0d, 0x3d, 0x21, 0x7e, 0xbf, 0x3c, 0xd3, 0x15, 0xb2, 0x3d, 0x98, 0x6a, 0xd4, 0x3e, 0xf0, 0xfe, 0xba, 0xbe, 0x6b, 0x4b, 0xba, 0xbd, 0x2e, 0x8d, 0x09, 0x3f, 0x5f, 0xee, 0xbc, 0x3e, 0x46, 0x51, 0x90, 0x3e, 0x8b, 0xfd, 0xa5, 0x3e, 0xa9, 0xb0, 0x82, 0x3d, 0xb5, 0xa0, 0x4c, 0xbc, 0x74, 0xff, 0x0e, 0x3e, 0x40, 0x29, 0xc2, 0x3e, 0x8b, 0x2b, 0x0b, 0x3d, 0x58, 0x01, 0xbe, 0x3e, 0xbc, 0x10, 0xbc, 0xbb, 0xec, 0x44, 0xa7, 0x3e, 0xa4, 0x3d, 0x47, 0xbd, 0x44, 0x10, 0x8f, 0x3e, 0xba, 0x08, 0x9e, 0xbe, 0x07, 0x50, 0x22, 0xbe, 0xad, 0x05, 0xbd, 0xbd, 0x61, 0x3c, 0xf1, 0xbe, 0x97, 0x9a, 0xe4, 0x3e, 0xd2, 0xac, 0x82, 0x3e, 0x48, 0xa3, 0xd1, 0xbc, 0xc0, 0xab, 0x1f, 0xbe, 0xf2, 0xc3, 0xc7, 0x3e, 0xc5, 0x4b, 0x13, 0x3e, 0x75, 0xf6, 0x87, 0xbe, 0x88, 0xf5, 0xc7, 0x3e, 0x3f, 0x97, 0xae, 0x3e, 0x29, 0xaa, 0x8c, 0x3e, 0xb5, 0x4d, 0xcb, 0x3e, 0x3a, 0xa2, 0xc4, 0xbe, 0xac, 0x79, 0x20, 0xbe, 0xea, 0xcb, 0xbc, 0xbe, 0xe0, 0x3b, 0x90, 0xbc, 0xd8, 0x37, 0x77, 0x3d, 0xf8, 0x67, 0x84, 0x3d, 0x65, 0x35, 0xb5, 0xbe, 0x37, 0xff, 0xb4, 0xbe, 0xa2, 0x5c, 0x7e, 0x3e, 0x88, 0xb1, 0x9d, 0xbe, 0x5d, 0xfb, 0x61, 0xbe, 0x69, 0xe0, 0xd2, 0xbe, 0x32, 0x3b, 0x25, 0xbe, 0x86, 0x16, 0x3d, 0x3e, 0xf2, 0xa4, 0x54, 0x3e, 0xf6, 0xa5, 0x64, 0x3e, 0xda, 0x76, 0x39, 0x3e, 0x00, 0x27, 0x2a, 0x3e, 0xce, 0x73, 0xa4, 0x3e, 0x89, 0x75, 0x00, 0x3e, 0xc4, 0x65, 0xb6, 0x3d, 0x03, 0x92, 0x31, 0xbe, 0xda, 0x4e, 0x9f, 0xbe, 0x78, 0xbf, 0x1b, 0xbd, 0xc3, 0x1a, 0x18, 0x3e, 0xde, 0xea, 0x80, 0x3c, 0xb3, 0x9a, 0x74, 0xbe, 0x0f, 0x5b, 0x65, 0x3e, 0x2a, 0x5f, 0x88, 0x3e, 0xba, 0x46, 0xc5, 0xbe, 0xe7, 0xdc, 0x0a, 0x3d, 0xb4, 0x8f, 0x74, 0x3e, 0x6d, 0xd8, 0xab, 0xbe, 0xc2, 0x06, 0x3a, 0x3e, 0xfc, 0x36, 0x12, 0xbc, 0x02, 0x1e, 0xc7, 0x3e, 0x55, 0x9f, 0x73, 0xbd, 0x9e, 0x9a, 0xde, 0x3e, 0x4e, 0x0a, 0x92, 0x3e, 0x9f, 0x22, 0x08, 0x3f, 0x59, 0x13, 0x87, 0xbe, 0x3b, 0x54, 0x0d, 0x3e, 0xb5, 0x66, 0x12, 0x3e, 0x37, 0xa7, 0x48, 0xbd, 0x2a, 0x2b, 0xd1, 0x3e, 0xf8, 0x4d, 0xa0, 0x3e, 0xd9, 0x62, 0xfb, 0x3d, 0x57, 0x4e, 0x90, 0xbe, 0x0d, 0xcb, 0xca, 0xbe, 0x58, 0xa3, 0x15, 0x3e, 0xca, 0x05, 0xc1, 0xbd, 0x50, 0xdc, 0xba, 0xbe, 0x87, 0x43, 0x14, 0x3e, 0xdb, 0x5a, 0x14, 0x3e, 0x00, 0x39, 0x01, 0xbf, 0xdd, 0x24, 0x77, 0xbe, 0x6c, 0x0b, 0x16, 0xbb, 0xc0, 0xe4, 0xfe, 0xbd, 0x22, 0xae, 0x6b, 0x3e, 0x3c, 0xa1, 0x47, 0x3e, 0x98, 0x0b, 0xd6, 0x3e, 0x4d, 0xd0, 0xc1, 0x3e, 0xda, 0x4a, 0x87, 0xbd, 0x28, 0x53, 0x5c, 0xbd, 0xda, 0x78, 0x3b, 0x3e, 0x6e, 0x61, 0xa4, 0xbe, 0xc5, 0x6e, 0xcf, 0xbe, 0xb2, 0x23, 0x8c, 0xbe, 0x1b, 0x60, 0x99, 0x3e, 0x2a, 0x7d, 0x29, 0x3e, 0xa8, 0x49, 0xa1, 0xbd, 0x8c, 0x0e, 0x17, 0xbe, 0xa4, 0xeb, 0xbd, 0x3d, 0xbd, 0xb4, 0x8e, 0x3e, 0xc4, 0x94, 0x47, 0xbe, 0xce, 0x8c, 0xc9, 0xbe, 0x20, 0x07, 0x66, 0x3c, 0x6b, 0x15, 0xa8, 0xbe, 0x62, 0x12, 0x9f, 0xbe, 0x2d, 0xc6, 0xb3, 0x3e, 0x48, 0xa6, 0x4c, 0x3e, 0xe7, 0x2b, 0xdb, 0xbd, 0xda, 0xf2, 0xa7, 0xbe, 0x0b, 0x84, 0x97, 0xbd, 0x2b, 0xcc, 0x2e, 0xbe, 0xd8, 0x48, 0xa7, 0x3c, 0x8d, 0x03, 0x65, 0x3d, 0x7a, 0x8d, 0xe7, 0xbd, 0x22, 0xd1, 0xfc, 0x3c, 0xb0, 0xf9, 0x99, 0xbe, 0xea, 0xf8, 0xf8, 0x3d, 0x85, 0x9f, 0x1d, 0x3e, 0xf9, 0x59, 0xce, 0xbc, 0xfb, 0x98, 0xae, 0x3e, 0x40, 0xf4, 0x00, 0xbe, 0xb0, 0x1c, 0x8f, 0xbd, 0xbf, 0x88, 0x95, 0xbe, 0x10, 0x56, 0xfa, 0xbd, 0x3e, 0x83, 0x73, 0x3e, 0x6b, 0x6f, 0xad, 0x3d, 0x6b, 0xd4, 0x42, 0x3e, 0x50, 0xd7, 0x67, 0xbd, 0xc7, 0xf1, 0x92, 0x3e, 0x67, 0xd1, 0x00, 0x3d, 0xb6, 0xf4, 0xf3, 0xbe, 0x98, 0x97, 0xaa, 0xbd, 0x8a, 0x70, 0x26, 0xbd, 0x9d, 0xaa, 0x86, 0xbe, 0xf6, 0x9a, 0xbf, 0xbd, 0xff, 0x3d, 0x32, 0xbd, 0x54, 0xba, 0xe5, 0x3d, 0x2a, 0x4b, 0x2b, 0x3d, 0x67, 0x21, 0xc7, 0x3e, 0xa6, 0x9f, 0xe4, 0x3e, 0x1c, 0xe4, 0x0b, 0xbe, 0x6f, 0x7e, 0xac, 0x3c, 0xd2, 0x0f, 0xe4, 0xbe, 0x60, 0xf0, 0xed, 0x3e, 0x90, 0x1b, 0x34, 0xbe, 0xcd, 0x00, 0x0a, 0x3f, 0x03, 0x0e, 0xc9, 0x3e, 0x12, 0x8d, 0x35, 0x3e, 0xa1, 0x9f, 0x25, 0xbd, 0x5a, 0x7b, 0xa3, 0xbc, 0x32, 0xd0, 0x87, 0x3e, 0xed, 0xe7, 0x44, 0xbd, 0x41, 0x10, 0xc6, 0xbd, 0xb2, 0xae, 0x81, 0xbe, 0xeb, 0x7a, 0x69, 0xbe, 0x8e, 0x6b, 0x1f, 0xbe, 0xe3, 0x11, 0xd2, 0xbd, 0x0f, 0xda, 0x85, 0xbe, 0x2a, 0xfa, 0x26, 0x3e, 0xe9, 0xc7, 0x19, 0xbe, 0x72, 0xfb, 0xe6, 0xbe, 0x95, 0xfe, 0x26, 0xbe, 0x90, 0x6f, 0x32, 0x3e, 0x94, 0xb0, 0xb2, 0x3e, 0xac, 0xf3, 0xcc, 0x3d, 0xf3, 0xcc, 0x9b, 0x3e, 0x60, 0x50, 0x45, 0x3e, 0x4f, 0xc1, 0x1f, 0xbc, 0x25, 0x42, 0x4f, 0x3e, 0x36, 0x3a, 0xb2, 0x3e, 0xe3, 0xd3, 0x8b, 0x3d, 0x4f, 0xbb, 0xd0, 0xbe, 0x1e, 0xa0, 0x3e, 0x3e, 0xb3, 0x71, 0x65, 0xbe, 0x5c, 0x14, 0xeb, 0x3d, 0x9b, 0x64, 0x28, 0xbe, 0xb8, 0xa3, 0x9b, 0xbd, 0x0a, 0xc1, 0x7a, 0xbe, 0x80, 0x40, 0xe9, 0xbd, 0x19, 0x29, 0x8d, 0x3e, 0x00, 0x6a, 0xe7, 0x3c, 0xc7, 0x92, 0xb5, 0xbd, 0x9a, 0x76, 0x02, 0xbe, 0xd0, 0x89, 0xd4, 0x3d, 0x57, 0x9a, 0xa0, 0xbe, 0x20, 0x27, 0x24, 0x3d, 0x40, 0xcd, 0x0c, 0xbe, 0xe1, 0xce, 0xcc, 0x3e, 0xf6, 0xf8, 0x9c, 0xbc, 0x89, 0x80, 0xc6, 0xbd, 0xf5, 0x6d, 0xd3, 0xbe, 0x63, 0xeb, 0x55, 0x3e, 0xfe, 0xe4, 0x28, 0x3e, 0x5d, 0x4c, 0xb5, 0xbe, 0xa6, 0xa4, 0x20, 0x3e, 0x7a, 0x83, 0x9b, 0x3e, 0xe6, 0xd8, 0x0a, 0x3d, 0x03, 0x53, 0xd0, 0xbe, 0xad, 0x0e, 0xf2, 0xba, 0x6d, 0x3d, 0xaf, 0x3e, 0xfb, 0x86, 0xa3, 0x3e, 0x93, 0x65, 0xa4, 0xbe, 0x49, 0xd0, 0xc8, 0x3c, 0x8b, 0xeb, 0x99, 0x3b, 0xca, 0x88, 0x48, 0xbc, 0x8d, 0x7f, 0xe7, 0xbe, 0x87, 0x9d, 0xa9, 0xbd, 0x95, 0x3e, 0x07, 0xbf, 0xc6, 0x18, 0xb0, 0xbd, 0xca, 0x76, 0x81, 0x3e, 0xd9, 0x37, 0xc4, 0xbe, 0x2f, 0x3d, 0x2a, 0xbe, 0x3c, 0x29, 0x6d, 0x3e, 0x4d, 0xfb, 0xed, 0xbd, 0x8c, 0x18, 0xa7, 0x3d, 0x8a, 0x84, 0xf2, 0xbe, 0xbe, 0x65, 0x8c, 0x3e, 0xfa, 0xfe, 0xff, 0xff, 0x04, 0x00, 0x00, 0x00, 0x80, 0x00, 0x00, 0x00, 0xc4, 0x26, 0x96, 0xbd, 0xce, 0x6f, 0x6d, 0x3e, 0x3c, 0x9f, 0x0c, 0xbf, 0xaf, 0x26, 0xb3, 0x3e, 0x8e, 0x95, 0x9b, 0xbe, 0x41, 0xf3, 0xc6, 0xbe, 0x09, 0x43, 0x3a, 0xbc, 0x41, 0x02, 0xd9, 0xbc, 0x43, 0x01, 0x93, 0x3e, 0x77, 0x98, 0x3c, 0x3d, 0x69, 0xb1, 0x0c, 0xbf, 0x09, 0xb1, 0xee, 0xbe, 0x53, 0x53, 0x01, 0x3f, 0x16, 0x9b, 0x2c, 0x3e, 0x16, 0xf1, 0x06, 0x3e, 0xef, 0x51, 0xe6, 0xbe, 0x19, 0xea, 0x20, 0x3f, 0xcd, 0x91, 0xa7, 0x3e, 0x46, 0x9d, 0x8d, 0x3d, 0x12, 0xf3, 0xef, 0xbd, 0xce, 0x7e, 0xf6, 0xbd, 0xea, 0x4c, 0xd1, 0xbe, 0xae, 0x23, 0x19, 0x3f, 0x47, 0x97, 0x9b, 0xbd, 0xb6, 0xa5, 0x3d, 0xbd, 0x06, 0x1c, 0x08, 0x3e, 0x4b, 0x15, 0x0f, 0x3e, 0x37, 0x54, 0xad, 0x3e, 0x67, 0x70, 0x17, 0xbe, 0x73, 0x90, 0xba, 0x3e, 0xb0, 0xbf, 0x00, 0x3f, 0xff, 0x96, 0x6b, 0xbe, 0x86, 0xff, 0xff, 0xff, 0x04, 0x00, 0x00, 0x00, 0x10, 0x00, 0x00, 0x00, 0x24, 0x33, 0x38, 0x3f, 0xe0, 0xd5, 0x35, 0xbc, 0x10, 0x7f, 0x2b, 0xbf, 0x0c, 0xd2, 0x9d, 0x3f, 0xa2, 0xff, 0xff, 0xff, 0x04, 0x00, 0x00, 0x00, 0x04, 0x00, 0x00, 0x00, 0x01, 0xdc, 0x4b, 0x3d, 0xb2, 0xff, 0xff, 0xff, 0x04, 0x00, 0x00, 0x00, 0x40, 0x00, 0x00, 0x00, 0xb1, 0xa9, 0xec, 0x3c, 0xe3, 0xfd, 0xb0, 0x3c, 0x06, 0x00, 0x13, 0x3d, 0xde, 0x10, 0x32, 0x3d, 0x00, 0x00, 0x00, 0x00, 0x9d, 0x31, 0x04, 0xbe, 0x69, 0xa3, 0x28, 0x3d, 0xfb, 0x20, 0x6e, 0x3e, 0x00, 0x00, 0x00, 0x00, 0xef, 0xfd, 0x09, 0xbd, 0x8c, 0x0c, 0x1d, 0xbe, 0xfe, 0xa0, 0xaf, 0x3c, 0x89, 0x69, 0x6c, 0xbd, 0xb6, 0x20, 0x1d, 0xbd, 0x3b, 0xb6, 0xce, 0xbd, 0x5c, 0xec, 0x0e, 0xbe, 0x00, 0x00, 0x06, 0x00, 0x08, 0x00, 0x04, 0x00, 0x06, 0x00, 0x00, 0x00, 0x04, 0x00, 0x00, 0x00, 0x40, 0x00, 0x00, 0x00, 0x68, 0x32, 0x12, 0xbe, 0x08, 0xd0, 0x00, 0xbe, 0x00, 0xdf, 0xb3, 0xbc, 0xac, 0xbc, 0xd1, 0xbd, 0xa3, 0x62, 0x83, 0xbd, 0xec, 0xe6, 0x7b, 0x3d, 0x44, 0x2d, 0x4c, 0x3b, 0x9c, 0x6d, 0x40, 0x3e, 0x02, 0x62, 0x4c, 0xbd, 0xdf, 0x27, 0x50, 0xbe, 0x8b, 0x0c, 0x19, 0xbe, 0xdc, 0x92, 0x1b, 0xbe, 0xf5, 0x66, 0xa0, 0x3d, 0x40, 0x4e, 0x56, 0x3a, 0x0e, 0x4d, 0xcf, 0xbd, 0x08, 0xdc, 0x3d, 0xbe, 0xfc, 0xf9, 0xff, 0xff, 0x00, 0xfa, 0xff, 0xff, 0x0f, 0x00, 0x00, 0x00, 0x4d, 0x4c, 0x49, 0x52, 0x20, 0x43, 0x6f, 0x6e, 0x76, 0x65, 0x72, 0x74, 0x65, 0x64, 0x2e, 0x00, 0x01, 0x00, 0x00, 0x00, 0x14, 0x00, 0x00, 0x00, 0x00, 0x00, 0x0e, 0x00, 0x18, 0x00, 0x14, 0x00, 0x10, 0x00, 0x0c, 0x00, 0x08, 0x00, 0x04, 0x00, 0x0e, 0x00, 0x00, 0x00, 0x14, 0x00, 0x00, 0x00, 0x1c, 0x00, 0x00, 0x00, 0x0c, 0x01, 0x00, 0x00, 0x10, 0x01, 0x00, 0x00, 0x14, 0x01, 0x00, 0x00, 0x04, 0x00, 0x00, 0x00, 0x6d, 0x61, 0x69, 0x6e, 0x00, 0x00, 0x00, 0x00, 0x04, 0x00, 0x00, 0x00, 0xc0, 0x00, 0x00, 0x00, 0x70, 0x00, 0x00, 0x00, 0x38, 0x00, 0x00, 0x00, 0x04, 0x00, 0x00, 0x00, 0x5e, 0xff, 0xff, 0xff, 0x10, 0x00, 0x00, 0x00, 0x00, 0x00, 0x00, 0x08, 0x0c, 0x00, 0x00, 0x00, 0x10, 0x00, 0x00, 0x00, 0x7c, 0xfa, 0xff, 0xff, 0x01, 0x00, 0x00, 0x00, 0x0b, 0x00, 0x00, 0x00, 0x03, 0x00, 0x00, 0x00, 0x0a, 0x00, 0x00, 0x00, 0x07, 0x00, 0x00, 0x00, 0x03, 0x00, 0x00, 0x00, 0x8e, 0xff, 0xff, 0xff, 0x10, 0x00, 0x00, 0x00, 0x00, 0x00, 0x00, 0x08, 0x10, 0x00, 0x00, 0x00, 0x14, 0x00, 0x00, 0x00, 0xca, 0xff, 0xff, 0xff, 0x00, 0x00, 0x00, 0x01, 0x01, 0x00, 0x00, 0x00, 0x0a, 0x00, 0x00, 0x00, 0x03, 0x00, 0x00, 0x00, 0x09, 0x00, 0x00, 0x00, 0x06, 0x00, 0x00, 0x00, 0x02, 0x00, 0x00, 0x00, 0xc2, 0xff, 0xff, 0xff, 0x18, 0x00, 0x00, 0x00, 0x00, 0x00, 0x00, 0x08, 0x18, 0x00, 0x00, 0x00, 0x1c, 0x00, 0x00, 0x00, 0x00, 0x00, 0x06, 0x00, 0x08, 0x00, 0x07, 0x00, 0x06, 0x00, 0x00, 0x00, 0x00, 0x00, 0x00, 0x01, 0x01, 0x00, 0x00, 0x00, 0x09, 0x00, 0x00, 0x00, 0x03, 0x00, 0x00, 0x00, 0x08, 0x00, 0x00, 0x00, 0x05, 0x00, 0x00, 0x00, 0x01, 0x00, 0x00, 0x00, 0x00, 0x00, 0x0e, 0x00, 0x14, 0x00, 0x00, 0x00, 0x10, 0x00, 0x0c, 0x00, 0x0b, 0x00, 0x04, 0x00, 0x0e, 0x00, 0x00, 0x00, 0x10, 0x00, 0x00, 0x00, 0x00, 0x00, 0x00, 0x08, 0x0c, 0x00, 0x00, 0x00, 0x10, 0x00, 0x00, 0x00, 0x2c, 0xfb, 0xff, 0xff, 0x01, 0x00, 0x00, 0x00, 0x08, 0x00, 0x00, 0x00, 0x03, 0x00, 0x00, 0x00, 0x00, 0x00, 0x00, 0x00, 0x04, 0x00, 0x00, 0x00, 0xff, 0xff, 0xff, 0xff, 0x01, 0x00, 0x00, 0x00, 0x0b, 0x00, 0x00, 0x00, 0x01, 0x00, 0x00, 0x00, 0x00, 0x00, 0x00, 0x00, 0x0c, 0x00, 0x00, 0x00, 0x7c, 0x04, 0x00, 0x00, 0xe8, 0x03, 0x00, 0x00, 0x78, 0x03, 0x00, 0x00, 0x20, 0x03, 0x00, 0x00, 0xd8, 0x02, 0x00, 0x00, 0x8c, 0x02, 0x00, 0x00, 0x40, 0x02, 0x00, 0x00, 0xf4, 0x01, 0x00, 0x00, 0x98, 0x01, 0x00, 0x00, 0xf0, 0x00, 0x00, 0x00, 0x60, 0x00, 0x00, 0x00, 0x04, 0x00, 0x00, 0x00, 0xca, 0xfb, 0xff, 0xff, 0x00, 0x00, 0x00, 0x01, 0x14, 0x00, 0x00, 0x00, 0x1c, 0x00, 0x00, 0x00, 0x1c, 0x00, 0x00, 0x00, 0x0c, 0x00, 0x00, 0x00, 0x34, 0x00, 0x00, 0x00, 0x02, 0x00, 0x00, 0x00, 0xff, 0xff, 0xff, 0xff, 0x01, 0x00, 0x00, 0x00, 0xb4, 0xfb, 0xff, 0xff, 0x19, 0x00, 0x00, 0x00, 0x53, 0x74, 0x61, 0x74, 0x65, 0x66, 0x75, 0x6c, 0x50, 0x61, 0x72, 0x74, 0x69, 0x74, 0x69, 0x6f, 0x6e, 0x65, 0x64, 0x43, 0x61, 0x6c, 0x6c, 0x3a, 0x30, 0x00, 0x00, 0x00, 0x02, 0x00, 0x00, 0x00, 0x01, 0x00, 0x00, 0x00, 0x01, 0x00, 0x00, 0x00, 0x22, 0xfc, 0xff, 0xff, 0x00, 0x00, 0x00, 0x01, 0x14, 0x00, 0x00, 0x00, 0x1c, 0x00, 0x00, 0x00, 0x1c, 0x00, 0x00, 0x00, 0x0b, 0x00, 0x00, 0x00, 0x68, 0x00, 0x00, 0x00, 0x02, 0x00, 0x00, 0x00, 0xff, 0xff, 0xff, 0xff, 0x10, 0x00, 0x00, 0x00, 0x0c, 0xfc, 0xff, 0xff, 0x4c, 0x00, 0x00, 0x00, 0x73, 0x65, 0x71, 0x75, 0x65, 0x6e, 0x74, 0x69, 0x61, 0x6c, 0x2f, 0x64, 0x65, 0x6e, 0x73, 0x65, 0x5f, 0x32, 0x2f, 0x4d, 0x61, 0x74, 0x4d, 0x75, 0x6c, 0x3b, 0x73, 0x65, 0x71, 0x75, 0x65, 0x6e, 0x74, 0x69, 0x61, 0x6c, 0x2f, 0x64, 0x65, 0x6e, 0x73, 0x65, 0x5f, 0x32, 0x2f, 0x52, 0x65, 0x6c, 0x75, 0x3b, 0x73, 0x65, 0x71, 0x75, 0x65, 0x6e, 0x74, 0x69, 0x61, 0x6c, 0x2f, 0x64, 0x65, 0x6e, 0x73, 0x65, 0x5f, 0x32, 0x2f, 0x42, 0x69, 0x61, 0x73, 0x41, 0x64, 0x64, 0x00, 0x00, 0x00, 0x00, 0x02, 0x00, 0x00, 0x00, 0x01, 0x00, 0x00, 0x00, 0x10, 0x00, 0x00, 0x00, 0xae, 0xfc, 0xff, 0xff, 0x00, 0x00, 0x00, 0x01, 0x14, 0x00, 0x00, 0x00, 0x1c, 0x00, 0x00, 0x00, 0x1c, 0x00, 0x00, 0x00, 0x0a, 0x00, 0x00, 0x00, 0x80, 0x00, 0x00, 0x00, 0x02, 0x00, 0x00, 0x00, 0xff, 0xff, 0xff, 0xff, 0x10, 0x00, 0x00, 0x00, 0x98, 0xfc, 0xff, 0xff, 0x65, 0x00, 0x00, 0x00, 0x73, 0x65, 0x71, 0x75, 0x65, 0x6e, 0x74, 0x69, 0x61, 0x6c, 0x2f, 0x64, 0x65, 0x6e, 0x73, 0x65, 0x2f, 0x42, 0x69, 0x61, 0x73, 0x41, 0x64, 0x64, 0x3b, 0x73, 0x65, 0x71, 0x75, 0x65, 0x6e, 0x74, 0x69, 0x61, 0x6c, 0x2f, 0x64, 0x65, 0x6e, 0x73, 0x65, 0x5f, 0x31, 0x2f, 0x4d, 0x61, 0x74, 0x4d, 0x75, 0x6c, 0x3b, 0x73, 0x65, 0x71, 0x75, 0x65, 0x6e, 0x74, 0x69, 0x61, 0x6c, 0x2f, 0x64, 0x65, 0x6e, 0x73, 0x65, 0x5f, 0x31, 0x2f, 0x52, 0x65, 0x6c, 0x75, 0x3b, 0x73, 0x65, 0x71, 0x75, 0x65, 0x6e, 0x74, 0x69, 0x61, 0x6c, 0x2f, 0x64, 0x65, 0x6e, 0x73, 0x65, 0x5f, 0x31, 0x2f, 0x42, 0x69, 0x61, 0x73, 0x41, 0x64, 0x64, 0x00, 0x00, 0x00, 0x02, 0x00, 0x00, 0x00, 0x01, 0x00, 0x00, 0x00, 0x10, 0x00, 0x00, 0x00, 0x52, 0xfd, 0xff, 0xff, 0x00, 0x00, 0x00, 0x01, 0x14, 0x00, 0x00, 0x00, 0x1c, 0x00, 0x00, 0x00, 0x1c, 0x00, 0x00, 0x00, 0x09, 0x00, 0x00, 0x00, 0x34, 0x00, 0x00, 0x00, 0x02, 0x00, 0x00, 0x00, 0xff, 0xff, 0xff, 0xff, 0x02, 0x00, 0x00, 0x00, 0x3c, 0xfd, 0xff, 0xff, 0x18, 0x00, 0x00, 0x00, 0x73, 0x65, 0x71, 0x75, 0x65, 0x6e, 0x74, 0x69, 0x61, 0x6c, 0x2f, 0x64, 0x65, 0x6e, 0x73, 0x65, 0x2f, 0x4d, 0x61, 0x74, 0x4d, 0x75, 0x6c, 0x32, 0x00, 0x00, 0x00, 0x00, 0x02, 0x00, 0x00, 0x00, 0x01, 0x00, 0x00, 0x00, 0x02, 0x00, 0x00, 0x00, 0x3a, 0xfe, 0xff, 0xff, 0x00, 0x00, 0x00, 0x01, 0x10, 0x00, 0x00, 0x00, 0x10, 0x00, 0x00, 0x00, 0x08, 0x00, 0x00, 0x00, 0x28, 0x00, 0x00, 0x00, 0x84, 0xfd, 0xff, 0xff, 0x19, 0x00, 0x00, 0x00, 0x73, 0x65, 0x71, 0x75, 0x65, 0x6e, 0x74, 0x69, 0x61, 0x6c, 0x2f, 0x64, 0x65, 0x6e, 0x73, 0x65, 0x5f, 0x33, 0x2f, 0x4d, 0x61, 0x74, 0x4d, 0x75, 0x6c, 0x00, 0x00, 0x00, 0x02, 0x00, 0x00, 0x00, 0x01, 0x00, 0x00, 0x00, 0x10, 0x00, 0x00, 0x00, 0x82, 0xfe, 0xff, 0xff, 0x00, 0x00, 0x00, 0x01, 0x10, 0x00, 0x00, 0x00, 0x10, 0x00, 0x00, 0x00, 0x07, 0x00, 0x00, 0x00, 0x28, 0x00, 0x00, 0x00, 0xcc, 0xfd, 0xff, 0xff, 0x19, 0x00, 0x00, 0x00, 0x73, 0x65, 0x71, 0x75, 0x65, 0x6e, 0x74, 0x69, 0x61, 0x6c, 0x2f, 0x64, 0x65, 0x6e, 0x73, 0x65, 0x5f, 0x32, 0x2f, 0x4d, 0x61, 0x74, 0x4d, 0x75, 0x6c, 0x00, 0x00, 0x00, 0x02, 0x00, 0x00, 0x00, 0x10, 0x00, 0x00, 0x00, 0x10, 0x00, 0x00, 0x00, 0xca, 0xfe, 0xff, 0xff, 0x00, 0x00, 0x00, 0x01, 0x10, 0x00, 0x00, 0x00, 0x10, 0x00, 0x00, 0x00, 0x06, 0x00, 0x00, 0x00, 0x28, 0x00, 0x00, 0x00, 0x14, 0xfe, 0xff, 0xff, 0x19, 0x00, 0x00, 0x00, 0x73, 0x65, 0x71, 0x75, 0x65, 0x6e, 0x74, 0x69, 0x61, 0x6c, 0x2f, 0x64, 0x65, 0x6e, 0x73, 0x65, 0x5f, 0x31, 0x2f, 0x4d, 0x61, 0x74, 0x4d, 0x75, 0x6c, 0x00, 0x00, 0x00, 0x02, 0x00, 0x00, 0x00, 0x10, 0x00, 0x00, 0x00, 0x02, 0x00, 0x00, 0x00, 0x12, 0xff, 0xff, 0xff, 0x00, 0x00, 0x00, 0x01, 0x10, 0x00, 0x00, 0x00, 0x10, 0x00, 0x00, 0x00, 0x05, 0x00, 0x00, 0x00, 0x24, 0x00, 0x00, 0x00, 0x5c, 0xfe, 0xff, 0xff, 0x17, 0x00, 0x00, 0x00, 0x73, 0x65, 0x71, 0x75, 0x65, 0x6e, 0x74, 0x69, 0x61, 0x6c, 0x2f, 0x64, 0x65, 0x6e, 0x73, 0x65, 0x2f, 0x4d, 0x61, 0x74, 0x4d, 0x75, 0x6c, 0x00, 0x02, 0x00, 0x00, 0x00, 0x02, 0x00, 0x00, 0x00, 0x02, 0x00, 0x00, 0x00, 0x56, 0xff, 0xff, 0xff, 0x00, 0x00, 0x00, 0x01, 0x10, 0x00, 0x00, 0x00, 0x10, 0x00, 0x00, 0x00, 0x04, 0x00, 0x00, 0x00, 0x38, 0x00, 0x00, 0x00, 0xa0, 0xfe, 0xff, 0xff, 0x29, 0x00, 0x00, 0x00, 0x73, 0x65, 0x71, 0x75, 0x65, 0x6e, 0x74, 0x69, 0x61, 0x6c, 0x2f, 0x64, 0x65, 0x6e, 0x73, 0x65, 0x5f, 0x33, 0x2f, 0x42, 0x69, 0x61, 0x73, 0x41, 0x64, 0x64, 0x2f, 0x52, 0x65, 0x61, 0x64, 0x56, 0x61, 0x72, 0x69, 0x61, 0x62, 0x6c, 0x65, 0x4f, 0x70, 0x00, 0x00, 0x00, 0x01, 0x00, 0x00, 0x00, 0x01, 0x00, 0x00, 0x00, 0xaa, 0xff, 0xff, 0xff, 0x00, 0x00, 0x00, 0x01, 0x10, 0x00, 0x00, 0x00, 0x10, 0x00, 0x00, 0x00, 0x03, 0x00, 0x00, 0x00, 0x38, 0x00, 0x00, 0x00, 0xf4, 0xfe, 0xff, 0xff, 0x29, 0x00, 0x00, 0x00, 0x73, 0x65, 0x71, 0x75, 0x65, 0x6e, 0x74, 0x69, 0x61, 0x6c, 0x2f, 0x64, 0x65, 0x6e, 0x73, 0x65, 0x5f, 0x32, 0x2f, 0x42, 0x69, 0x61, 0x73, 0x41, 0x64, 0x64, 0x2f, 0x52, 0x65, 0x61, 0x64, 0x56, 0x61, 0x72, 0x69, 0x61, 0x62, 0x6c, 0x65, 0x4f, 0x70, 0x00, 0x00, 0x00, 0x01, 0x00, 0x00, 0x00, 0x10, 0x00, 0x00, 0x00, 0x00, 0x00, 0x16, 0x00, 0x18, 0x00, 0x14, 0x00, 0x00, 0x00, 0x10, 0x00, 0x0c, 0x00, 0x08, 0x00, 0x00, 0x00, 0x00, 0x00, 0x00, 0x00, 0x07, 0x00, 0x16, 0x00, 0x00, 0x00, 0x00, 0x00, 0x00, 0x01, 0x10, 0x00, 0x00, 0x00, 0x10, 0x00, 0x00, 0x00, 0x02, 0x00, 0x00, 0x00, 0x5c, 0x00, 0x00, 0x00, 0x60, 0xff, 0xff, 0xff, 0x4c, 0x00, 0x00, 0x00, 0x73, 0x65, 0x71, 0x75, 0x65, 0x6e, 0x74, 0x69, 0x61, 0x6c, 0x2f, 0x64, 0x65, 0x6e, 0x73, 0x65, 0x5f, 0x31, 0x2f, 0x4d, 0x61, 0x74, 0x4d, 0x75, 0x6c, 0x3b, 0x73, 0x65, 0x71, 0x75, 0x65, 0x6e, 0x74, 0x69, 0x61, 0x6c, 0x2f, 0x64, 0x65, 0x6e, 0x73, 0x65, 0x5f, 0x31, 0x2f, 0x52, 0x65, 0x6c, 0x75, 0x3b, 0x73, 0x65, 0x71, 0x75, 0x65, 0x6e, 0x74, 0x69, 0x61, 0x6c, 0x2f, 0x64, 0x65, 0x6e, 0x73, 0x65, 0x5f, 0x31, 0x2f, 0x42, 0x69, 0x61, 0x73, 0x41, 0x64, 0x64, 0x00, 0x00, 0x00, 0x00, 0x01, 0x00, 0x00, 0x00, 0x10, 0x00, 0x00, 0x00, 0x00, 0x00, 0x16, 0x00, 0x1c, 0x00, 0x18, 0x00, 0x00, 0x00, 0x14, 0x00, 0x10, 0x00, 0x0c, 0x00, 0x00, 0x00, 0x00, 0x00, 0x08, 0x00, 0x07, 0x00, 0x16, 0x00, 0x00, 0x00, 0x00, 0x00, 0x00, 0x01, 0x14, 0x00, 0x00, 0x00, 0x20, 0x00, 0x00, 0x00, 0x20, 0x00, 0x00, 0x00, 0x01, 0x00, 0x00, 0x00, 0x3c, 0x00, 0x00, 0x00, 0x02, 0x00, 0x00, 0x00, 0xff, 0xff, 0xff, 0xff, 0x02, 0x00, 0x00, 0x00, 0x04, 0x00, 0x04, 0x00, 0x04, 0x00, 0x00, 0x00, 0x1d, 0x00, 0x00, 0x00, 0x73, 0x65, 0x72, 0x76, 0x69, 0x6e, 0x67, 0x5f, 0x64, 0x65, 0x66, 0x61, 0x75, 0x6c, 0x74, 0x5f, 0x64, 0x65, 0x6e, 0x73, 0x65, 0x5f, 0x69, 0x6e, 0x70, 0x75, 0x74, 0x3a, 0x30, 0x00, 0x00, 0x00, 0x02, 0x00, 0x00, 0x00, 0x01, 0x00, 0x00, 0x00, 0x02, 0x00, 0x00, 0x00, 0x01, 0x00, 0x00, 0x00, 0x10, 0x00, 0x00, 0x00, 0x0c, 0x00, 0x0c, 0x00, 0x0b, 0x00, 0x00, 0x00, 0x00, 0x00, 0x04, 0x00, 0x0c, 0x00, 0x00, 0x00, 0x09, 0x00, 0x00, 0x00, 0x00, 0x00, 0x00, 0x09 };

/**
 * Wrapper around the EloquentTinyML library
 */
template<uint32_t arenaSize>
class TensorFlowPorter {
    public:
        Eloquent::TinyML::TensorFlow::AllOpsTensorFlow<2, 1, arenaSize> tf;

        /**
         * Init model
         */
        bool begin() {
            return tf.begin(modelData);
        }

        /**
         * Proxy
         */
        uint8_t predict(uint8_t *input, uint8_t *output = NULL) {
            return tf.predict(input, output);
        }

        /**
         * Proxy
         */
        int8_t predict(int8_t *input, int8_t *output = NULL) {
            return tf.predict(input, output);
        }

        /**
         * Proxy
         */
        float predict(float *input, float *output = NULL) {
            return tf.predict(input, output);
        }

        /**
         * Proxy
         */
        template<typename T>
        uint8_t predictClass(T *input) {
            return tf.predictClass(input);
        }

        /**
         * Proxy
         */
        float getScoreAt(uint8_t index) {
            return tf.getScoreAt(index);
        }

        /**
         * Proxy
         */
        String getErrorMessage() {
            return tf.getErrorMessage();
        }
};



TensorFlowPorter<ARENA_SIZE> model2;


#endif